{"[BOS]": 0, "[EOS]": 1, "the": 2, "to": 3, "of": 4, "a": 5, "and": 6, "is": 7, "in": 8, "i": 9, "that": 10, "it": 11, "this": 12, "s": 13, "not": 14, "as": 15, "be": 16, "on": 17, "for": 18, "you": 19, "t": 20, "article": 21, "are": 22, "or": 23, "by": 24, "an": 25, "with": 26, "have": 27, "was": 28, "but": 29, "if": 30, "at": 31, "there": 32, "from": 33, "we": 34, "about": 35, "can": 36, "one": 37, "has": 38, "so": 39, "what": 40, "no": 41, "should": 42, "which": 43, "would": 44, "they": 45, "re": 46, "all": 47, "m": 48, "more": 49, "do": 50, "k": 51, "page": 52, "ing": 53, "b": 54, "he": 55, "other": 56, "e": 57, "d": 58, "some": 59, "added": 60, "c": 61, "also": 62, "just": 63, "section": 64, "been": 65, "any": 66, "es": 67, "g": 68, "de": 69, "sources": 70, "f": 71, "un": 72, "here": 73, "think": 74, "ed": 75, "like": 76, "wikipedia": 77, "my": 78, "your": 79, "o": 80, "his": 81, "don": 82, "y": 83, "p": 84, "source": 85, "only": 86, "talk": 87, "n": 88, "h": 89, "comment": 90, "will": 91, "see": 92, "r": 93, "1": 94, "who": 95, "were": 96, "than": 97, "u": 98, "en": 99, "its": 100, "because": 101, "al": 102, "use": 103, "w": 104, "2": 105, "er": 106, "l": 107, "ti": 108, "does": 109, "me": 110, "then": 111, "ve": 112, "when": 113, "please": 114, "out": 115, "preceding": 116, "v": 117, "wp": 118, "ar": 119, "their": 120, "ts": 121, "unsigned": 122, "up": 123, "people": 124, "used": 125, "dis": 126, "time": 127, "how": 128, "ation": 129, "may": 130, "j": 131, "ted": 132, "first": 133, "ro": 134, "name": 135, "even": 136, "could": 137, "am": 138, "them": 139, "now": 140, "these": 141, "z": 142, "ate": 143, "co": 144, "very": 145, "ac": 146, "why": 147, "being": 148, "way": 149, "li": 150, "con": 151, "such": 152, "3": 153, "information": 154, "well": 155, "us": 156, "http": 157, "had": 158, "new": 159, "say": 160, "know": 161, "two": 162, "most": 163, "ated": 164, "articles": 165, "ab": 166, "se": 167, "di": 168, "th": 169, "le": 170, "st": 171, "ly": 172, "into": 173, "ting": 174, "make": 175, "edit": 176, "ad": 177, "list": 178, "link": 179, "where": 180, "po": 181, "point": 182, "same": 183, "many": 184, "discussion": 185, "red": 186, "made": 187, "did": 188, "good": 189, "need": 190, "ers": 191, "ch": 192, "since": 193, "much": 194, "ri": 195, "ra": 196, "pro": 197, "mo": 198, "able": 199, "ex": 200, "reliable": 201, "fact": 202, "those": 203, "4": 204, "si": 205, "ag": 206, "seems": 207, "com": 208, "5": 209, "over": 210, "per": 211, "after": 212, "ds": 213, "before": 214, "bo": 215, "6": 216, "redirect": 217, "ic": 218, "tion": 219, "find": 220, "ll": 221, "x": 222, "her": 223, "image": 224, "lo": 225, "still": 226, "www": 227, "ent": 228, "case": 229, "get": 230, "history": 231, "removed": 232, "both": 233, "right": 234, "found": 235, "8": 236, "doesn": 237, "really": 238, "work": 239, "add": 240, "7": 241, "part": 242, "sh": 243, "ne": 244, "im": 245, "9": 246, "above": 247, "te": 248, "something": 249, "pre": 250, "ho": 251, "however": 252, "ma": 253, "while": 254, "said": 255, "change": 256, "sa": 257, "em": 258, "sure": 259, "says": 260, "our": 261, "ter": 262, "go": 263, "reference": 264, "text": 265, "el": 266, "too": 267, "pe": 268, "ca": 269, "tions": 270, "ment": 271, "read": 272, "ity": 273, "without": 274, "back": 275, "state": 276, "different": 277, "ap": 278, "om": 279, "someone": 280, "la": 281, "agree": 282, "ding": 283, "actually": 284, "better": 285, "mis": 286, "20": 287, "want": 288, "content": 289, "review": 290, "non": 291, "states": 292, "ist": 293, "might": 294, "par": 295, "ations": 296, "ph": 297, "own": 298, "ha": 299, "another": 300, "book": 301, "term": 302, "mar": 303, "ous": 304, "english": 305, "il": 306, "she": 307, "under": 308, "take": 309, "example": 310, "ating": 311, "ur": 312, "title": 313, "support": 314, "ans": 315, "tr": 316, "isn": 317, "between": 318, "ism": 319, "sentence": 320, "rather": 321, "word": 322, "years": 323, "gu": 324, "already": 325, "pa": 326, "issue": 327, "world": 328, "references": 329, "using": 330, "tive": 331, "deletion": 332, "reason": 333, "ine": 334, "age": 335, "mention": 336, "man": 337, "ul": 338, "lead": 339, "material": 340, "ded": 341, "2011": 342, "bi": 343, "mon": 344, "editors": 345, "als": 346, "place": 347, "though": 348, "again": 349, "needs": 350, "ir": 351, "going": 352, "mi": 353, "bu": 354, "ta": 355, "ant": 356, "br": 357, "ke": 358, "line": 359, "su": 360, "op": 361, "look": 362, "original": 363, "him": 364, "links": 365, "thanks": 366, "consensus": 367, "hi": 368, "given": 369, "long": 370, "0": 371, "pu": 372, "fe": 373, "qu": 374, "sp": 375, "yes": 376, "tic": 377, "ally": 378, "move": 379, "ge": 380, "war": 381, "day": 382, "let": 383, "put": 384, "problem": 385, "less": 386, "either": 387, "sc": 388, "whether": 389, "based": 390, "fi": 391, "believe": 392, "best": 393, "number": 394, "ce": 395, "clear": 396, "king": 397, "far": 398, "den": 399, "ol": 400, "following": 401, "du": 402, "current": 403, "anyone": 404, "mentioned": 405, "least": 406, "pl": 407, "son": 408, "ties": 409, "done": 410, "subject": 411, "topic": 412, "view": 413, "etc": 414, "10": 415, "never": 416, "claim": 417, "try": 418, "anything": 419, "ical": 420, "opinion": 421, "few": 422, "archive": 423, "mean": 424, "note": 425, "research": 426, "ks": 427, "request": 428, "probably": 429, "ty": 430, "les": 431, "um": 432, "remove": 433, "question": 434, "news": 435, "car": 436, "thing": 437, "utc": 438, "free": 439, "language": 440, "au": 441, "things": 442, "written": 443, "include": 444, "tri": 445, "correct": 446, "version": 447, "har": 448, "ings": 449, "statement": 450, "against": 451, "must": 452, "called": 453, "pi": 454, "id": 455, "ren": 456, "nothing": 457, "others": 458, "vi": 459, "tra": 460, "enough": 461, "end": 462, "wrong": 463, "ver": 464, "perhaps": 465, "date": 466, "bit": 467, "inter": 468, "last": 469, "18": 470, "gi": 471, "simply": 472, "main": 473, "comments": 474, "edits": 475, "sub": 476, "ance": 477, "second": 478, "general": 479, "important": 480, "true": 481, "ten": 482, "down": 483, "form": 484, "ates": 485, "show": 486, "ked": 487, "ni": 488, "evidence": 489, "paragraph": 490, "person": 491, "org": 492, "several": 493, "wiki": 494, "ons": 495, "notable": 496, "ary": 497, "af": 498, "understand": 499, "through": 500, "further": 501, "times": 502, "seem": 503, "changes": 504, "sen": 505, "ry": 506, "clearly": 507, "res": 508, "ia": 509, "come": 510, "style": 511, "lot": 512, "american": 513, "little": 514, "common": 515, "file": 516, "ship": 517, "relevant": 518, "wa": 519, "saying": 520, "ise": 521, "makes": 522, "although": 523, "cannot": 524, "trans": 525, "policy": 526, "et": 527, "der": 528, "table": 529, "tu": 530, "year": 531, "19": 532, "ou": 533, "ori": 534, "until": 535, "gen": 536, "keep": 537, "published": 538, "including": 539, "each": 540, "min": 541, "ang": 542, "ga": 543, "pr": 544, "help": 545, "bl": 546, "off": 547, "having": 548, "fair": 549, "jo": 550, "every": 551, "lin": 552, "vis": 553, "books": 554, "cl": 555, "three": 556, "2010": 557, "feel": 558, "suggest": 559, "didn": 560, "editor": 561, "included": 562, "vo": 563, "means": 564, "give": 565, "specific": 566, "yet": 567, "tional": 568, "sense": 569, "group": 570, "ever": 571, "na": 572, "known": 573, "pages": 574, "possible": 575, "ven": 576, "land": 577, "quite": 578, "matter": 579, "during": 580, "old": 581, "deleted": 582, "changed": 583, "words": 584, "q": 585, "col": 586, "fin": 587, "cited": 588, "maybe": 589, "000": 590, "course": 591, "gr": 592, "sur": 593, "life": 594, "united": 595, "199": 596, "issues": 597, "great": 598, "ob": 599, "ber": 600, "2012": 601, "idea": 602, "claims": 603, "ying": 604, "itself": 605, "according": 606, "ning": 607, "official": 608, "ved": 609, "making": 610, "cu": 611, "instead": 612, "ian": 613, "cre": 614, "related": 615, "ru": 616, "appropriate": 617, "11": 618, "film": 619, "ste": 620, "else": 621, "government": 622, "set": 623, "12": 624, "single": 625, "fac": 626, "later": 627, "ser": 628, "user": 629, "provide": 630, "order": 631, "names": 632, "gh": 633, "quote": 634, "listed": 635, "wi": 636, "pov": 637, "ak": 638, "bar": 639, "start": 640, "class": 641, "post": 642, "left": 643, "definition": 644, "ence": 645, "tly": 646, "ics": 647, "ba": 648, "pen": 649, "est": 650, "ves": 651, "whole": 652, "around": 653, "google": 654, "doing": 655, "ses": 656, "cr": 657, "mu": 658, "00": 659, "citation": 660, "real": 661, "ters": 662, "trying": 663, "rs": 664, "da": 665, "cor": 666, "bre": 667, "party": 668, "info": 669, "ct": 670, "media": 671, "uk": 672, "political": 673, "considered": 674, "images": 675, "thought": 676, "primary": 677, "major": 678, "city": 679, "within": 680, "ev": 681, "commons": 682, "ability": 683, "fa": 684, "ps": 685, "sive": 686, "str": 687, "ci": 688, "british": 689, "law": 690, "15": 691, "cap": 692, "comm": 693, "ton": 694, "dic": 695, "ari": 696, "system": 697, "neutral": 698, "ones": 699, "ors": 700, "personal": 701, "ep": 702, "editing": 703, "tro": 704, "seen": 705, "appears": 706, "got": 707, "ju": 708, "fo": 709, "cen": 710, "country": 711, "website": 712, "sho": 713, "ali": 714, "site": 715, "present": 716, "low": 717, "science": 718, "certainly": 719, "needed": 720, "therefore": 721, "wor": 722, "top": 723, "fied": 724, "always": 725, "points": 726, "currently": 727, "ments": 728, "tation": 729, "ists": 730, "unless": 731, "side": 732, "ms": 733, "high": 734, "national": 735, "ful": 736, "mor": 737, "thank": 738, "tur": 739, "similar": 740, "bur": 741, "dr": 742, "argument": 743, "position": 744, "198": 745, "sections": 746, "provided": 747, "adding": 748, "nor": 749, "due": 750, "regarding": 751, "act": 752, "ster": 753, "separate": 754, "ban": 755, "tal": 756, "context": 757, "once": 758, "check": 759, "sion": 760, "recent": 761, "self": 762, "ite": 763, "taken": 764, "theory": 765, "mat": 766, "mer": 767, "ok": 768, "tical": 769, "tt": 770, "men": 771, "full": 772, "public": 773, "ss": 774, "views": 775, "ies": 776, "facts": 777, "particular": 778, "ard": 779, "terms": 780, "story": 781, "ned": 782, "sk": 783, "cted": 784, "stated": 785, "especially": 786, "call": 787, "2013": 788, "copyright": 789, "ys": 790, "sch": 791, "ure": 792, "ents": 793, "background": 794, "tor": 795, "pri": 796, "os": 797, "data": 798, "consider": 799, "bro": 800, "tes": 801, "significant": 802, "citations": 803, "14": 804, "ner": 805, "ced": 806, "tag": 807, "school": 808, "uses": 809, "body": 810, "report": 811, "sourced": 812, "summary": 813, "looks": 814, "50": 815, "ask": 816, "infobox": 817, "2014": 818, "spe": 819, "13": 820, "often": 821, "game": 822, "hol": 823, "pretty": 824, "30": 825, "win": 826, "university": 827, "looking": 828, "write": 829, "por": 830, "hy": 831, "dec": 832, "wh": 833, "rec": 834, "works": 835, "25": 836, "search": 837, "lan": 838, "likely": 839, "kind": 840, "area": 841, "ars": 842, "reading": 843, "wing": 844, "early": 845, "days": 846, "197": 847, "music": 848, "third": 849, "web": 850, "logy": 851, "moved": 852, "series": 853, "ving": 854, "explain": 855, "ish": 856, "discuss": 857, "ces": 858, "actual": 859, "16": 860, "ko": 861, "lu": 862, "html": 863, "pic": 864, "category": 865, "jpg": 866, "picture": 867, "reasons": 868, "bot": 869, "today": 870, "fl": 871, "completely": 872, "modern": 873, "german": 874, "enti": 875, "fun": 876, "ness": 877, "almost": 878, "ble": 879, "sha": 880, "bor": 881, "22": 882, "led": 883, "external": 884, "small": 885, "standard": 886, "ator": 887, "ze": 888, "stri": 889, "wikiproject": 890, "fu": 891, "death": 892, "exactly": 893, "cal": 894, "ats": 895, "ran": 896, "rest": 897, "writing": 898, "17": 899, "sing": 900, "tre": 901, "fr": 902, "company": 903, "gg": 904, "plan": 905, "appear": 906, "ls": 907, "weight": 908, "cite": 909, "cy": 910, "large": 911, "med": 912, "sin": 913, "scientific": 914, "guidelines": 915, "mind": 916, "shows": 917, "result": 918, "status": 919, "sla": 920, "historical": 921, "ele": 922, "fran": 923, "ck": 924, "ley": 925, "big": 926, "light": 927, "nominated": 928, "template": 929, "countries": 930, "fix": 931, "gre": 932, "otherwise": 933, "reader": 934, "hard": 935, "necessary": 936, "thus": 937, "available": 938, "came": 939, "next": 940, "author": 941, "short": 942, "field": 943, "ric": 944, "ec": 945, "ii": 946, "various": 947, "acy": 948, "readers": 949, "press": 950, "21": 951, "cul": 952, "bad": 953, "ture": 954, "bri": 955, "created": 956, "importance": 957, "inv": 958, "coun": 959, "type": 960, "below": 961, "meaning": 962, "eng": 963, "uni": 964, "npov": 965, "lar": 966, "gro": 967, "indeed": 968, "char": 969, "ages": 970, "addition": 971, "ass": 972, "international": 973, "oper": 974, "cha": 975, "family": 976, "06": 977, "ther": 978, "action": 979, "ger": 980, "ago": 981, "ore": 982, "longer": 983, "wrote": 984, "reverted": 985, "sed": 986, "cro": 987, "human": 988, "criticism": 989, "online": 990, "ial": 991, "sorry": 992, "church": 993, "refer": 994, "century": 995, "power": 996, "previous": 997, "john": 998, "certain": 999, "map": 1000, "des": 1001, "box": 1002, "gives": 1003, "secondary": 1004, "south": 1005, "hu": 1006, "key": 1007, "entire": 1008, "fine": 1009, "rac": 1010, "sta": 1011, "entry": 1012, "stop": 1013, "accurate": 1014, "23": 1015, "video": 1016, "removing": 1017, "problems": 1018, "statements": 1019, "gra": 1020, "196": 1021, "ens": 1022, "anti": 1023, "numbers": 1024, "details": 1025, "ably": 1026, "white": 1027, "2015": 1028, "four": 1029, "born": 1030, "discussed": 1031, "lation": 1032, "loc": 1033, "won": 1034, "hope": 1035, "head": 1036, "rationale": 1037, "ming": 1038, "val": 1039, "ined": 1040, "ow": 1041, "space": 1042, "va": 1043, "simple": 1044, "tell": 1045, "dead": 1046, "working": 1047, "generally": 1048, "mil": 1049, "promo": 1050, "song": 1051, "anyway": 1052, "ders": 1053, "05": 1054, "kin": 1055, "shouldn": 1056, "spo": 1057, "season": 1058, "pat": 1059, "obviously": 1060, "process": 1061, "talking": 1062, "description": 1063, "open": 1064, "ically": 1065, "dates": 1066, "results": 1067, "hand": 1068, "past": 1069, "useful": 1070, "ion": 1071, "interesting": 1072, "leave": 1073, "notability": 1074, "194": 1075, "gener": 1076, "hor": 1077, "proposed": 1078, "bs": 1079, "false": 1080, "liber": 1081, "million": 1082, "tw": 1083, "encyclopedia": 1084, "ology": 1085, "vari": 1086, "24": 1087, "black": 1088, "level": 1089, "sts": 1090, "north": 1091, "je": 1092, "ling": 1093, "sort": 1094, "legal": 1095, "syn": 1096, "involved": 1097, "album": 1098, "tin": 1099, "tors": 1100, "merge": 1101, "community": 1102, "interest": 1103, "knowledge": 1104, "fer": 1105, "directly": 1106, "explanation": 1107, "french": 1108, "cont": 1109, "specifically": 1110, "alism": 1111, "ately": 1112, "ker": 1113, "ess": 1114, "dra": 1115, "among": 1116, "ell": 1117, "cing": 1118, "exist": 1119, "coming": 1120, "controversy": 1121, "oppose": 1122, "ef": 1123, "house": 1124, "military": 1125, "comes": 1126, "ping": 1127, "wasn": 1128, "themselves": 1129, "india": 1130, "ann": 1131, "tan": 1132, "0s": 1133, "100": 1134, "ill": 1135, "ade": 1136, "named": 1137, "complete": 1138, "wording": 1139, "prote": 1140, "difference": 1141, "sup": 1142, "fre": 1143, "examples": 1144, "ited": 1145, "requested": 1146, "become": 1147, "along": 1148, "period": 1149, "worth": 1150, "detail": 1151, "bra": 1152, "events": 1153, "bas": 1154, "started": 1155, "ement": 1156, "port": 1157, "wat": 1158, "ye": 1159, "lists": 1160, "equ": 1161, "linked": 1162, "members": 1163, "inclusion": 1164, "sor": 1165, "ctions": 1166, "shi": 1167, "population": 1168, "mal": 1169, "dly": 1170, "presen": 1171, "multiple": 1172, "ick": 1173, "stuff": 1174, "ality": 1175, "event": 1176, "ative": 1177, "tered": 1178, "study": 1179, "ped": 1180, "fication": 1181, "tics": 1182, "proper": 1183, "incorrect": 1184, "pan": 1185, "took": 1186, "wed": 1187, "women": 1188, "tv": 1189, "march": 1190, "getting": 1191, "ame": 1192, "ction": 1193, "vic": 1194, "away": 1195, "mag": 1196, "lines": 1197, "stra": 1198, "earlier": 1199, "everything": 1200, "board": 1201, "cover": 1202, "fy": 1203, "late": 1204, "none": 1205, "independent": 1206, "inten": 1207, "criteria": 1208, "groups": 1209, "cam": 1210, "covered": 1211, "dy": 1212, "described": 1213, "2009": 1214, "everyone": 1215, "ip": 1216, "play": 1217, "cases": 1218, "care": 1219, "404": 1220, "inf": 1221, "god": 1222, "via": 1223, "comp": 1224, "bias": 1225, "opinions": 1226, "usually": 1227, "referenced": 1228, "band": 1229, "oc": 1230, "center": 1231, "ot": 1232, "han": 1233, "hon": 1234, "quality": 1235, "project": 1236, "understanding": 1237, "disagree": 1238, "myself": 1239, "lack": 1240, "gs": 1241, "majority": 1242, "gn": 1243, "ide": 1244, "dispute": 1245, "vs": 1246, "follow": 1247, "clo": 1248, "log": 1249, "usage": 1250, "israel": 1251, "goes": 1252, "west": 1253, "cri": 1254, "dan": 1255, "vir": 1256, "half": 1257, "sign": 1258, "fic": 1259, "wouldn": 1260, "religion": 1261, "01": 1262, "supported": 1263, "alist": 1264, "ase": 1265, "obvious": 1266, "ach": 1267, "photo": 1268, "ast": 1269, "sim": 1270, "tives": 1271, "proposal": 1272, "revert": 1273, "ged": 1274, "rights": 1275, "26": 1276, "culture": 1277, "coverage": 1278, "debate": 1279, "social": 1280, "local": 1281, "future": 1282, "quali": 1283, "team": 1284, "christian": 1285, "june": 1286, "speci": 1287, "ward": 1288, "movement": 1289, "aren": 1290, "april": 1291, "ns": 1292, "paper": 1293, "record": 1294, "copy": 1295, "response": 1296, "tain": 1297, "hel": 1298, "jewish": 1299, "att": 1300, "ft": 1301, "close": 1302, "cle": 1303, "nic": 1304, "ya": 1305, "biased": 1306, "former": 1307, "july": 1308, "ign": 1309, "rules": 1310, "que": 1311, "missing": 1312, "27": 1313, "individual": 1314, "fully": 1315, "water": 1316, "pt": 1317, "haven": 1318, "air": 1319, "lab": 1320, "figure": 1321, "neither": 1322, "allow": 1323, "doubt": 1324, "january": 1325, "delete": 1326, "ently": 1327, "2007": 1328, "outside": 1329, "notes": 1330, "force": 1331, "appro": 1332, "phrase": 1333, "ld": 1334, "dro": 1335, "mark": 1336, "arguments": 1337, "ised": 1338, "ref": 1339, "lede": 1340, "court": 1341, "ple": 1342, "religious": 1343, "america": 1344, "ah": 1345, "tically": 1346, "whatever": 1347, "sal": 1348, "live": 1349, "hin": 1350, "control": 1351, "istic": 1352, "stu": 1353, "ines": 1354, "taking": 1355, "character": 1356, "ants": 1357, "popular": 1358, "answer": 1359, "gl": 1360, "describe": 1361, "nu": 1362, "entirely": 1363, "az": 1364, "pur": 1365, "els": 1366, "together": 1367, "arch": 1368, "speedy": 1369, "wn": 1370, "lis": 1371, "sw": 1372, "ians": 1373, "ases": 1374, "wal": 1375, "york": 1376, "bal": 1377, "ney": 1378, "controversial": 1379, "ice": 1380, "fil": 1381, "zed": 1382, "except": 1383, "bul": 1384, "sy": 1385, "ins": 1386, "happened": 1387, "avoid": 1388, "address": 1389, "ei": 1390, "size": 1391, "august": 1392, "tary": 1393, "release": 1394, "logical": 1395, "lic": 1396, "sting": 1397, "mac": 1398, "placed": 1399, "iz": 1400, "ham": 1401, "sol": 1402, "viol": 1403, "policies": 1404, "tory": 1405, "29": 1406, "che": 1407, "28": 1408, "account": 1409, "direct": 1410, "guess": 1411, "academic": 1412, "represen": 1413, "create": 1414, "uc": 1415, "studies": 1416, "released": 1417, "valid": 1418, "2008": 1419, "03": 1420, "vie": 1421, "soci": 1422, "went": 1423, "comb": 1424, "indic": 1425, "value": 1426, "living": 1427, "ie": 1428, "effect": 1429, "ches": 1430, "quotes": 1431, "concept": 1432, "ely": 1433, "children": 1434, "upon": 1435, "https": 1436, "september": 1437, "mus": 1438, "china": 1439, "himself": 1440, "rel": 1441, "minor": 1442, "strong": 1443, "attempt": 1444, "meant": 1445, "ka": 1446, "conflict": 1447, "cas": 1448, "organization": 1449, "row": 1450, "december": 1451, "chinese": 1452, "remember": 1453, "mc": 1454, "october": 1455, "accus": 1456, "pla": 1457, "tried": 1458, "ions": 1459, "error": 1460, "ctive": 1461, "dent": 1462, "continu": 1463, "02": 1464, "established": 1465, "particularly": 1466, "ption": 1467, "properly": 1468, "mem": 1469, "highly": 1470, "aware": 1471, "western": 1472, "ring": 1473, "dri": 1474, "european": 1475, "apparently": 1476, "ws": 1477, "aring": 1478, "recently": 1479, "art": 1480, "align": 1481, "takes": 1482, "pos": 1483, "refers": 1484, "sentences": 1485, "definitely": 1486, "vol": 1487, "sel": 1488, "interested": 1489, "east": 1490, "nature": 1491, "ased": 1492, "parts": 1493, "noted": 1494, "couple": 1495, "disambiguation": 1496, "reli": 1497, "sions": 1498, "journ": 1499, "clu": 1500, "super": 1501, "oun": 1502, "rely": 1503, "ways": 1504, "40": 1505, "presented": 1506, "ack": 1507, "ators": 1508, "agreed": 1509, "ash": 1510, "contradic": 1511, "energy": 1512, "medi": 1513, "leg": 1514, "ency": 1515, "alone": 1516, "ich": 1517, "president": 1518, "sti": 1519, "wanted": 1520, "possibly": 1521, "arian": 1522, "cause": 1523, "cur": 1524, "episode": 1525, "conver": 1526, "purpose": 1527, "november": 1528, "test": 1529, "amount": 1530, "ff": 1531, "ay": 1532, "04": 1533, "journal": 1534, "regards": 1535, "questions": 1536, "wil": 1537, "faith": 1538, "nar": 1539, "users": 1540, "int": 1541, "gar": 1542, "rule": 1543, "assume": 1544, "cat": 1545, "edited": 1546, "attention": 1547, "actions": 1548, "blp": 1549, "heard": 1550, "removal": 1551, "ological": 1552, "itted": 1553, "moment": 1554, "protected": 1555, "titles": 1556, "san": 1557, "situation": 1558, "sometimes": 1559, "sto": 1560, "russian": 1561, "respon": 1562, "games": 1563, "serve": 1564, "supposed": 1565, "ously": 1566, "reported": 1567, "ale": 1568, "respe": 1569, "ny": 1570, "2006": 1571, "undue": 1572, "referring": 1573, "summari": 1574, "improve": 1575, "football": 1576, "movie": 1577, "basis": 1578, "additional": 1579, "sounds": 1580, "happy": 1581, "earth": 1582, "includes": 1583, "medical": 1584, "mentions": 1585, "civil": 1586, "redu": 1587, "sett": 1588, "net": 1589, "total": 1590, "sam": 1591, "compe": 1592, "special": 1593, "av": 1594, "sted": 1595, "suc": 1596, "contest": 1597, "army": 1598, "mas": 1599, "struc": 1600, "europe": 1601, "suggestion": 1602, "suggested": 1603, "yo": 1604, "gets": 1605, "nation": 1606, "role": 1607, "changing": 1608, "tom": 1609, "fixed": 1610, "development": 1611, "dated": 1612, "classi": 1613, "eg": 1614, "became": 1615, "february": 1616, "sound": 1617, "ben": 1618, "limited": 1619, "middle": 1620, "lled": 1621, "tran": 1622, "acceptable": 1623, "sexual": 1624, "father": 1625, "sele": 1626, "service": 1627, "blog": 1628, "analysis": 1629, "depen": 1630, "structure": 1631, "ought": 1632, "ese": 1633, "health": 1634, "fringe": 1635, "referred": 1636, "aw": 1637, "attack": 1638, "week": 1639, "propose": 1640, "reasonable": 1641, "cts": 1642, "member": 1643, "love": 1644, "og": 1645, "places": 1646, "home": 1647, "shor": 1648, "yed": 1649, "mostly": 1650, "business": 1651, "run": 1652, "continue": 1653, "misleading": 1654, "irrelevant": 1655, "stan": 1656, "commen": 1657, "personally": 1658, "notice": 1659, "truth": 1660, "07": 1661, "introduction": 1662, "pun": 1663, "saw": 1664, "piece": 1665, "deb": 1666, "recogn": 1667, "sex": 1668, "split": 1669, "deal": 1670, "asked": 1671, "incre": 1672, "contains": 1673, "ual": 1674, "serious": 1675, "nomin": 1676, "connection": 1677, "lations": 1678, "ining": 1679, "consistent": 1680, "cheers": 1681, "bir": 1682, "negative": 1683, "star": 1684, "birth": 1685, "195": 1686, "produ": 1687, "nice": 1688, "claimed": 1689, "scri": 1690, "mainstream": 1691, "internet": 1692, "helpful": 1693, "explained": 1694, "liter": 1695, "greek": 1696, "alternative": 1697, "citiz": 1698, "mr": 1699, "sum": 1700, "invol": 1701, "capit": 1702, "color": 1703, "natural": 1704, "months": 1705, "fir": 1706, "nam": 1707, "required": 1708, "pal": 1709, "easily": 1710, "defined": 1711, "shown": 1712, "ai": 1713, "bel": 1714, "practice": 1715, "rfc": 1716, "tem": 1717, "active": 1718, "concerns": 1719, "assum": 1720, "final": 1721, "accept": 1722, "kes": 1723, "job": 1724, "interpre": 1725, "sites": 1726, "ana": 1727, "sco": 1728, "pres": 1729, "difficult": 1730, "constitu": 1731, "cho": 1732, "bb": 1733, "ler": 1734, "80": 1735, "reflect": 1736, "across": 1737, "languages": 1738, "ki": 1739, "hun": 1740, "format": 1741, "indian": 1742, "aa": 1743, "lat": 1744, "reads": 1745, "germany": 1746, "giving": 1747, "merged": 1748, "wide": 1749, "society": 1750, "jesus": 1751, "biography": 1752, "ive": 1753, "aged": 1754, "proof": 1755, "merely": 1756, "vice": 1757, "thinking": 1758, "semi": 1759, "detailed": 1760, "van": 1761, "looked": 1762, "ue": 1763, "program": 1764, "discussing": 1765, "wish": 1766, "ery": 1767, "tru": 1768, "despite": 1769, "agreement": 1770, "adver": 1771, "broad": 1772, "sym": 1773, "jews": 1774, "verifiable": 1775, "town": 1776, "onal": 1777, "canada": 1778, "tial": 1779, "cop": 1780, "organ": 1781, "global": 1782, "exists": 1783, "mation": 1784, "spelling": 1785, "08": 1786, "ken": 1787, "ili": 1788, "prior": 1789, "adm": 1790, "interpretation": 1791, "bility": 1792, "focus": 1793, "kingdom": 1794, "literature": 1795, "tis": 1796, "alized": 1797, "widely": 1798, "wers": 1799, "infor": 1800, "squ": 1801, "mission": 1802, "affe": 1803, "characters": 1804, "accepted": 1805, "pon": 1806, "hold": 1807, "pp": 1808, "production": 1809, "yourself": 1810, "31": 1811, "beyond": 1812, "five": 1813, "ket": 1814, "stre": 1815, "mass": 1816, "dd": 1817, "ordin": 1818, "cred": 1819, "previously": 1820, "pdf": 1821, "ong": 1822, "exten": 1823, "instance": 1824, "tags": 1825, "reports": 1826, "tiv": 1827, "mos": 1828, "republic": 1829, "copyrighted": 1830, "speaking": 1831, "belong": 1832, "died": 1833, "ball": 1834, "dam": 1835, "ath": 1836, "confusing": 1837, "region": 1838, "scre": 1839, "played": 1840, "near": 1841, "objec": 1842, "hom": 1843, "allowed": 1844, "figures": 1845, "stating": 1846, "prove": 1847, "stat": 1848, "failed": 1849, "peer": 1850, "origin": 1851, "fal": 1852, "translation": 1853, "money": 1854, "thy": 1855, "basic": 1856, "bun": 1857, "ize": 1858, "battle": 1859, "japanese": 1860, "applic": 1861, "overall": 1862, "central": 1863, "soon": 1864, "colle": 1865, "cra": 1866, "syri": 1867, "prin": 1868, "challeng": 1869, "cut": 1870, "scholars": 1871, "union": 1872, "hr": 1873, "asser": 1874, "positive": 1875, "office": 1876, "access": 1877, "pointed": 1878, "mental": 1879, "moving": 1880, "posted": 1881, "bac": 1882, "update": 1883, "areas": 1884, "beginning": 1885, "aries": 1886, "dre": 1887, "tho": 1888, "seriously": 1889, "ere": 1890, "acks": 1891, "count": 1892, "rock": 1893, "station": 1894, "sun": 1895, "wit": 1896, "crimin": 1897, "lost": 1898, "argu": 1899, "tex": 1900, "thre": 1901, "apo": 1902, "conf": 1903, "ference": 1904, "lower": 1905, "easy": 1906, "england": 1907, "reviews": 1908, "loo": 1909, "clin": 1910, "sm": 1911, "noticed": 1912, "jer": 1913, "ireland": 1914, "ching": 1915, "require": 1916, "ising": 1917, "calling": 1918, "defin": 1919, "trac": 1920, "oh": 1921, "ched": 1922, "length": 1923, "model": 1924, "wait": 1925, "kar": 1926, "lea": 1927, "watch": 1928, "encyclopedic": 1929, "higher": 1930, "race": 1931, "held": 1932, "college": 1933, "necessarily": 1934, "antly": 1935, "occu": 1936, "respect": 1937, "tim": 1938, "ized": 1939, "code": 1940, "chi": 1941, "hum": 1942, "ground": 1943, "wer": 1944, "indi": 1945, "achi": 1946, "existing": 1947, "standards": 1948, "ences": 1949, "xes": 1950, "60": 1951, "phr": 1952, "refle": 1953, "fit": 1954, "police": 1955, "absolutely": 1956, "clar": 1957, "ory": 1958, "discussions": 1959, "apply": 1960, "face": 1961, "determin": 1962, "poor": 1963, "mentioning": 1964, "critical": 1965, "vote": 1966, "argue": 1967, "ut": 1968, "opening": 1969, "elec": 1970, "inci": 1971, "authors": 1972, "obser": 1973, "fol": 1974, "location": 1975, "index": 1976, "checked": 1977, "behind": 1978, "rever": 1979, "correctly": 1980, "sil": 1981, "tric": 1982, "bil": 1983, "ideas": 1984, "topics": 1985, "unsourced": 1986, "choice": 1987, "design": 1988, "decision": 1989, "ital": 1990, "building": 1991, "theories": 1992, "justi": 1993, "somewhere": 1994, "range": 1995, "dar": 1996, "emplo": 1997, "bring": 1998, "told": 1999, "193": 2000, "usa": 2001, "09": 2002, "sci": 2003, "quoted": 2004, "cast": 2005, "zz": 2006, "conven": 2007, "bol": 2008, "systems": 2009, "catholic": 2010, "fas": 2011, "stand": 2012, "fying": 2013, "ford": 2014, "domin": 2015, "club": 2016, "towards": 2017, "thro": 2018, "direc": 2019, "hing": 2020, "sus": 2021, "forward": 2022, "cour": 2023, "vandalism": 2024, "fav": 2025, "uploaded": 2026, "bom": 2027, "ligh": 2028, "dings": 2029, "lling": 2030, "experience": 2031, "plot": 2032, "ingly": 2033, "kh": 2034, "expert": 2035, "archi": 2036, "fairly": 2037, "pas": 2038, "ace": 2039, "magazine": 2040, "ships": 2041, "australia": 2042, "opposed": 2043, "regu": 2044, "night": 2045, "asing": 2046, "demonstr": 2047, "guideline": 2048, "spanish": 2049, "solution": 2050, "boo": 2051, "vely": 2052, "ancient": 2053, "associated": 2054, "tionally": 2055, "gave": 2056, "empire": 2057, "eu": 2058, "david": 2059, "putting": 2060, "graph": 2061, "ration": 2062, "front": 2063, "latter": 2064, "suf": 2065, "education": 2066, "gan": 2067, "2005": 2068, "league": 2069, "iting": 2070, "dddddd": 2071, "peri": 2072, "tend": 2073, "contribu": 2074, "lit": 2075, "speak": 2076, "received": 2077, "happen": 2078, "career": 2079, "forms": 2080, "candi": 2081, "elsewhere": 2082, "popu": 2083, "tively": 2084, "mother": 2085, "basically": 2086, "oring": 2087, "sufficient": 2088, "whose": 2089, "decided": 2090, "stub": 2091, "pictures": 2092, "hello": 2093, "intended": 2094, "bia": 2095, "ours": 2096, "confusion": 2097, "sar": 2098, "listing": 2099, "election": 2100, "tations": 2101, "subsequent": 2102, "cel": 2103, "evi": 2104, "approach": 2105, "flag": 2106, "doc": 2107, "sourcing": 2108, "tually": 2109, "welcome": 2110, "scope": 2111, "od": 2112, "species": 2113, "pass": 2114, "ram": 2115, "progress": 2116, "showing": 2117, "fle": 2118, "offen": 2119, "asse": 2120, "ear": 2121, "reviewed": 2122, "ature": 2123, "records": 2124, "object": 2125, "considering": 2126, "kers": 2127, "ible": 2128, "judg": 2129, "existence": 2130, "lim": 2131, "secu": 2132, "updated": 2133, "pot": 2134, "cla": 2135, "cluded": 2136, "comple": 2137, "thoughts": 2138, "201": 2139, "stru": 2140, "dents": 2141, "concern": 2142, "ths": 2143, "agre": 2144, "youtube": 2145, "cli": 2146, "child": 2147, "ethnic": 2148, "onic": 2149, "gone": 2150, "ries": 2151, "gres": 2152, "ination": 2153, "james": 2154, "wants": 2155, "pra": 2156, "lon": 2157, "ops": 2158, "sem": 2159, "gun": 2160, "road": 2161, "killed": 2162, "london": 2163, "tagged": 2164, "france": 2165, "cent": 2166, "worked": 2167, "replaced": 2168, "originally": 2169, "gin": 2170, "meet": 2171, "exact": 2172, "green": 2173, "flo": 2174, "ering": 2175, "paul": 2176, "hypo": 2177, "mathema": 2178, "bat": 2179, "hence": 2180, "prose": 2181, "asking": 2182, "ams": 2183, "suggestions": 2184, "chem": 2185, "forces": 2186, "bbc": 2187, "appreciate": 2188, "hab": 2189, "newspaper": 2190, "mun": 2191, "eth": 2192, "revis": 2193, "psycho": 2194, "remain": 2195, "aspects": 2196, "spir": 2197, "repu": 2198, "tting": 2199, "politics": 2200, "somewhat": 2201, "dom": 2202, "mur": 2203, "nt": 2204, "tism": 2205, "sul": 2206, "unfortunately": 2207, "scot": 2208, "circum": 2209, "cru": 2210, "finally": 2211, "guy": 2212, "brought": 2213, "knows": 2214, "types": 2215, "surely": 2216, "separ": 2217, "prefer": 2218, "zing": 2219, "pped": 2220, "roman": 2221, "finding": 2222, "bus": 2223, "gam": 2224, "concerned": 2225, "regardless": 2226, "ina": 2227, "tar": 2228, "contain": 2229, "notification": 2230, "computer": 2231, "seeing": 2232, "yer": 2233, "mad": 2234, "clean": 2235, "cultural": 2236, "tures": 2237, "moun": 2238, "citing": 2239, "hal": 2240, "din": 2241, "php": 2242, "suggests": 2243, "nobody": 2244, "prec": 2245, "prac": 2246, "neutrality": 2247, "starting": 2248, "era": 2249, "document": 2250, "attribu": 2251, "violation": 2252, "reve": 2253, "compla": 2254, "rang": 2255, "compar": 2256, "worthy": 2257, "explicitly": 2258, "regi": 2259, "films": 2260, "restored": 2261, "foreign": 2262, "throughout": 2263, "za": 2264, "conclusion": 2265, "attacks": 2266, "ust": 2267, "replace": 2268, "influ": 2269, "technical": 2270, "publications": 2271, "ym": 2272, "paragraphs": 2273, "commonly": 2274, "foot": 2275, "relationship": 2276, "inven": 2277, "campaign": 2278, "familiar": 2279, "posting": 2280, "success": 2281, "served": 2282, "appe": 2283, "mul": 2284, "player": 2285, "usual": 2286, "native": 2287, "contributions": 2288, "letter": 2289, "wikimedia": 2290, "gol": 2291, "effects": 2292, "numerous": 2293, "centr": 2294, "totally": 2295, "island": 2296, "correc": 2297, "normal": 2298, "county": 2299, "sian": 2300, "okay": 2301, "90": 2302, "product": 2303, "abor": 2304, "hen": 2305, "conspiracy": 2306, "flu": 2307, "rate": 2308, "lies": 2309, "strongly": 2310, "spi": 2311, "ough": 2312, "stor": 2313, "cting": 2314, "soviet": 2315, "plus": 2316, "2000": 2317, "bab": 2318, "confirmed": 2319, "regard": 2320, "deri": 2321, "turn": 2322, "colon": 2323, "track": 2324, "esti": 2325, "ky": 2326, "indicate": 2327, "fire": 2328, "bran": 2329, "aling": 2330, "ental": 2331, "claiming": 2332, "fall": 2333, "ama": 2334, "bc": 2335, "northern": 2336, "wea": 2337, "develo": 2338, "base": 2339, "authority": 2340, "ston": 2341, "xim": 2342, "licensed": 2343, "association": 2344, "george": 2345, "lots": 2346, "shot": 2347, "featured": 2348, "stay": 2349, "food": 2350, "climate": 2351, "panic": 2352, "announ": 2353, "freely": 2354, "creation": 2355, "bottom": 2356, "dig": 2357, "lion": 2358, "incident": 2359, "ades": 2360, "ahead": 2361, "200": 2362, "russia": 2363, "laws": 2364, "turned": 2365, "sible": 2366, "serves": 2367, "anywhere": 2368, "ential": 2369, "offic": 2370, "identi": 2371, "interview": 2372, "foun": 2373, "confused": 2374, "physical": 2375, "extremely": 2376, "bold": 2377, "somebody": 2378, "wars": 2379, "differences": 2380, "reality": 2381, "brief": 2382, "secre": 2383, "balance": 2384, "professional": 2385, "politic": 2386, "cities": 2387, "chron": 2388, "eli": 2389, "ghts": 2390, "blue": 2391, "influence": 2392, "geograph": 2393, "fies": 2394, "dif": 2395, "clarify": 2396, "yp": 2397, "function": 2398, "construc": 2399, "advoc": 2400, "bly": 2401, "70": 2402, "runs": 2403, "ners": 2404, "wel": 2405, "cer": 2406, "len": 2407, "ini": 2408, "addressed": 2409, "environ": 2410, "sou": 2411, "die": 2412, "introdu": 2413, "potential": 2414, "tially": 2415, "errors": 2416, "effort": 2417, "ukra": 2418, "chan": 2419, "tele": 2420, "enter": 2421, "attemp": 2422, "match": 2423, "mari": 2424, "organiz": 2425, "rus": 2426, "famous": 2427, "35": 2428, "street": 2429, "pression": 2430, "vation": 2431, "technology": 2432, "cir": 2433, "irish": 2434, "treatment": 2435, "perspective": 2436, "pus": 2437, "acking": 2438, "tual": 2439, "writer": 2440, "tone": 2441, "japan": 2442, "expect": 2443, "substan": 2444, "young": 2445, "smo": 2446, "suspect": 2447, "ison": 2448, "immediately": 2449, "htm": 2450, "lam": 2451, "supporting": 2452, "copied": 2453, "ax": 2454, "acade": 2455, "contro": 2456, "lear": 2457, "distribu": 2458, "condu": 2459, "african": 2460, "protection": 2461, "ron": 2462, "disputed": 2463, "average": 2464, "territory": 2465, "logic": 2466, "atory": 2467, "dictionary": 2468, "impact": 2469, "alle": 2470, "aircraft": 2471, "federal": 2472, "park": 2473, "six": 2474, "dem": 2475, "israeli": 2476, "latin": 2477, "prob": 2478, "heading": 2479, "vil": 2480, "pho": 2481, "appeared": 2482, "regis": 2483, "comparison": 2484, "bridge": 2485, "rou": 2486, "nes": 2487, "italian": 2488, "enced": 2489, "ku": 2490, "scholarly": 2491, "keeping": 2492, "month": 2493, "ctively": 2494, "applies": 2495, "economic": 2496, "eastern": 2497, "plac": 2498, "99": 2499, "lets": 2500, "michael": 2501, "belongs": 2502, "mid": 2503, "mechan": 2504, "ica": 2505, "gov": 2506, "cess": 2507, "ek": 2508, "convin": 2509, "photos": 2510, "kno": 2511, "americans": 2512, "naming": 2513, "indu": 2514, "writ": 2515, "vers": 2516, "wonder": 2517, "dg": 2518, "1st": 2519, "marks": 2520, "raised": 2521, "conne": 2522, "wood": 2523, "built": 2524, "parties": 2525, "produced": 2526, "hur": 2527, "woman": 2528, "critic": 2529, "2004": 2530, "cons": 2531, "sides": 2532, "developed": 2533, "measu": 2534, "inappropriate": 2535, "ound": 2536, "incorpor": 2537, "cou": 2538, "micro": 2539, "greater": 2540, "whitel": 2541, "studi": 2542, "metal": 2543, "rul": 2544, "huge": 2545, "electr": 2546, "repe": 2547, "bill": 2548, "respond": 2549, "obama": 2550, "mic": 2551, "core": 2552, "satis": 2553, "ples": 2554, "mine": 2555, "decide": 2556, "graphy": 2557, "awards": 2558, "nations": 2559, "illustr": 2560, "documen": 2561, "factual": 2562, "publication": 2563, "swit": 2564, "vey": 2565, "william": 2566, "method": 2567, "dence": 2568, "software": 2569, "larger": 2570, "scen": 2571, "requires": 2572, "colum": 2573, "matters": 2574, "referen": 2575, "mes": 2576, "remains": 2577, "fail": 2578, "relation": 2579, "britain": 2580, "represent": 2581, "aci": 2582, "quick": 2583, "loca": 2584, "couldn": 2585, "radi": 2586, "hours": 2587, "intro": 2588, "vin": 2589, "wik": 2590, "forum": 2591, "mm": 2592, "shall": 2593, "institu": 2594, "radio": 2595, "hardly": 2596, "ja": 2597, "gate": 2598, "option": 2599, "versions": 2600, "happens": 2601, "stone": 2602, "reply": 2603, "acts": 2604, "historians": 2605, "implies": 2606, "requests": 2607, "duplic": 2608, "africa": 2609, "qui": 2610, "32": 2611, "berg": 2612, "wan": 2613, "dered": 2614, "followed": 2615, "fan": 2616, "arab": 2617, "ght": 2618, "email": 2619, "autom": 2620, "biograph": 2621, "largest": 2622, "belief": 2623, "nearly": 2624, "recognized": 2625, "rewritten": 2626, "determine": 2627, "break": 2628, "edition": 2629, "audi": 2630, "kill": 2631, "describes": 2632, "smith": 2633, "thesis": 2634, "experim": 2635, "operation": 2636, "marriage": 2637, "warring": 2638, "river": 2639, "canadian": 2640, "bib": 2641, "evolution": 2642, "opportunity": 2643, "gay": 2644, "complex": 2645, "door": 2646, "equal": 2647, "minority": 2648, "contributors": 2649, "45": 2650, "songs": 2651, "mistake": 2652, "ads": 2653, "documents": 2654, "contact": 2655, "blacklist": 2656, "engine": 2657, "modify": 2658, "stances": 2659, "gue": 2660, "step": 2661, "degree": 2662, "lay": 2663, "distinction": 2664, "stands": 2665, "speed": 2666, "muslim": 2667, "pin": 2668, "conc": 2669, "itting": 2670, "deleting": 2671, "sent": 2672, "hat": 2673, "dont": 2674, "econom": 2675, "def": 2676, "australian": 2677, "prof": 2678, "replac": 2679, "renam": 2680, "kept": 2681, "suitable": 2682, "ils": 2683, "tax": 2684, "upload": 2685, "rent": 2686, "follows": 2687, "gri": 2688, "understood": 2689, "lie": 2690, "sales": 2691, "minim": 2692, "swe": 2693, "council": 2694, "ptions": 2695, "describing": 2696, "dele": 2697, "guys": 2698, "washington": 2699, "whit": 2700, "communic": 2701, "closed": 2702, "islam": 2703, "sand": 2704, "district": 2705, "royal": 2706, "resi": 2707, "scientists": 2708, "entries": 2709, "alists": 2710, "survi": 2711, "compared": 2712, "differen": 2713, "fered": 2714, "bin": 2715, "sea": 2716, "isation": 2717, "atic": 2718, "descri": 2719, "gover": 2720, "library": 2721, "fore": 2722, "nal": 2723, "verify": 2724, "market": 2725, "administ": 2726, "leaving": 2727, "furthermore": 2728, "lingu": 2729, "paren": 2730, "tance": 2731, "unknown": 2732, "daily": 2733, "reverting": 2734, "signed": 2735, "edly": 2736, "ald": 2737, "athe": 2738, "suggesting": 2739, "alter": 2740, "cin": 2741, "weeks": 2742, "lou": 2743, "files": 2744, "olog": 2745, "tou": 2746, "desi": 2747, "democr": 2748, "industry": 2749, "message": 2750, "isting": 2751, "students": 2752, "hood": 2753, "sky": 2754, "marke": 2755, "secon": 2756, "identity": 2757, "del": 2758, "applied": 2759, "grad": 2760, "pop": 2761, "began": 2762, "impro": 2763, "chart": 2764, "tained": 2765, "contr": 2766, "double": 2767, "individuals": 2768, "stable": 2769, "tam": 2770, "objections": 2771, "integr": 2772, "stage": 2773, "voice": 2774, "leading": 2775, "distingu": 2776, "additions": 2777, "unnecessary": 2778, "victi": 2779, "croati": 2780, "standing": 2781, "stant": 2782, "abe": 2783, "random": 2784, "capital": 2785, "ging": 2786, "cross": 2787, "expanded": 2788, "counter": 2789, "bigg": 2790, "cele": 2791, "traditional": 2792, "jur": 2793, "hits": 2794, "positions": 2795, "publis": 2796, "spread": 2797, "pati": 2798, "division": 2799, "episodes": 2800, "define": 2801, "initial": 2802, "bon": 2803, "philosophy": 2804, "opposition": 2805, "tac": 2806, "tionary": 2807, "ots": 2808, "assertion": 2809, "yu": 2810, "label": 2811, "princi": 2812, "papers": 2813, "units": 2814, "phone": 2815, "anism": 2816, "tle": 2817, "gal": 2818, "tour": 2819, "private": 2820, "sters": 2821, "carri": 2822, "aching": 2823, "lah": 2824, "twice": 2825, "desc": 2826, "pg": 2827, "share": 2828, "2003": 2829, "somehow": 2830, "btw": 2831, "vel": 2832, "ris": 2833, "ets": 2834, "fla": 2835, "calls": 2836, "corpor": 2837, "refs": 2838, "schools": 2839, "islamic": 2840, "besides": 2841, "contested": 2842, "inaccurate": 2843, "projec": 2844, "concep": 2845, "dol": 2846, "asia": 2847, "blocked": 2848, "manner": 2849, "caused": 2850, "chance": 2851, "slo": 2852, "ado": 2853, "suppose": 2854, "willing": 2855, "ught": 2856, "impression": 2857, "presi": 2858, "dat": 2859, "southern": 2860, "disco": 2861, "rewrite": 2862, "provides": 2863, "spec": 2864, "statistics": 2865, "gender": 2866, "definitions": 2867, "33": 2868, "queen": 2869, "dies": 2870, "ols": 2871, "civili": 2872, "2001": 2873, "violations": 2874, "vements": 2875, "award": 2876, "cc": 2877, "odd": 2878, "creating": 2879, "unit": 2880, "ssing": 2881, "tun": 2882, "mexic": 2883, "compromise": 2884, "fri": 2885, "missed": 2886, "crime": 2887, "univers": 2888, "knowle": 2889, "bible": 2890, "ray": 2891, "archives": 2892, "2nd": 2893, "adv": 2894, "tally": 2895, "weap": 2896, "improvement": 2897, "playing": 2898, "cites": 2899, "room": 2900, "wo": 2901, "objective": 2902, "resolved": 2903, "ult": 2904, "poin": 2905, "covers": 2906, "zero": 2907, "tte": 2908, "slightly": 2909, "titled": 2910, "inside": 2911, "pub": 2912, "stric": 2913, "rative": 2914, "reporting": 2915, "fiction": 2916, "sports": 2917, "female": 2918, "verified": 2919, "whom": 2920, "older": 2921, "jun": 2922, "accuracy": 2923, "ane": 2924, "television": 2925, "cup": 2926, "contrary": 2927, "ended": 2928, "contin": 2929, "mir": 2930, "medicine": 2931, "ani": 2932, "perfectly": 2933, "cies": 2934, "quar": 2935, "adequ": 2936, "occup": 2937, "som": 2938, "lands": 2939, "lau": 2940, "kur": 2941, "network": 2942, "jan": 2943, "mode": 2944, "impossible": 2945, "features": 2946, "expand": 2947, "corrected": 2948, "implic": 2949, "companies": 2950, "scale": 2951, "easier": 2952, "plenty": 2953, "propos": 2954, "temper": 2955, "mou": 2956, "thor": 2957, "nov": 2958, "nonsense": 2959, "categories": 2960, "column": 2961, "recei": 2962, "dog": 2963, "conservative": 2964, "male": 2965, "essentially": 2966, "gram": 2967, "persons": 2968, "eds": 2969, "regim": 2970, "ox": 2971, "ises": 2972, "tition": 2973, "balanced": 2974, "robert": 2975, "hear": 2976, "return": 2977, "input": 2978, "tab": 2979, "christ": 2980, "gas": 2981, "whereas": 2982, "mail": 2983, "stories": 2984, "connected": 2985, "tivity": 2986, "sold": 2987, "tured": 2988, "anybody": 2989, "fici": 2990, "pping": 2991, "wall": 2992, "sequ": 2993, "tari": 2994, "zation": 2995, "compu": 2996, "nas": 2997, "legitimate": 2998, "footnote": 2999, "violence": 3000, "yl": 3001, "ills": 3002, "ges": 3003, "essen": 3004, "block": 3005, "wei": 3006, "sia": 3007, "objection": 3008, "restric": 3009, "stick": 3010, "preserved": 3011, "pointing": 3012, "supports": 3013, "acci": 3014, "polish": 3015, "titu": 3016, "48": 3017, "guide": 3018, "blan": 3019, "apologi": 3020, "imply": 3021, "learn": 3022, "shap": 3023, "resolution": 3024, "rad": 3025, "scholar": 3026, "behavior": 3027, "arti": 3028, "significance": 3029, "genre": 3030, "explo": 3031, "36": 3032, "jec": 3033, "running": 3034, "doub": 3035, "homo": 3036, "editorial": 3037, "myth": 3038, "reached": 3039, "jef": 3040, "gree": 3041, "plat": 3042, "physics": 3043, "posed": 3044, "universe": 3045, "fili": 3046, "artist": 3047, "primarily": 3048, "bank": 3049, "portion": 3050, "los": 3051, "security": 3052, "volume": 3053, "identified": 3054, "thers": 3055, "met": 3056, "speculation": 3057, "providing": 3058, "yeah": 3059, "provin": 3060, "luc": 3061, "trial": 3062, "located": 3063, "confir": 3064, "representation": 3065, "modified": 3066, "concerning": 3067, "ira": 3068, "brown": 3069, "fundam": 3070, "gor": 3071, "largely": 3072, "comprehen": 3073, "ods": 3074, "relevance": 3075, "ements": 3076, "exam": 3077, "aded": 3078, "arri": 3079, "oil": 3080, "organizations": 3081, "bian": 3082, "enc": 3083, "elements": 3084, "ception": 3085, "tative": 3086, "formed": 3087, "bed": 3088, "2002": 3089, "pid": 3090, "tage": 3091, "ng": 3092, "evol": 3093, "divi": 3094, "roun": 3095, "finished": 3096, "reviewer": 3097, "37": 3098, "websites": 3099, "christianity": 3100, "wise": 3101, "mel": 3102, "introduced": 3103, "predic": 3104, "improved": 3105, "confirm": 3106, "lows": 3107, "becomes": 3108, "linking": 3109, "stal": 3110, "parap": 3111, "reg": 3112, "assuming": 3113, "experi": 3114, "ully": 3115, "propaganda": 3116, "34": 3117, "mainly": 3118, "dden": 3119, "rer": 3120, "automated": 3121, "arguing": 3122, "hung": 3123, "regular": 3124, "identify": 3125, "wife": 3126, "govern": 3127, "dating": 3128, "grammar": 3129, "gene": 3130, "aks": 3131, "pli": 3132, "ambiguous": 3133, "ished": 3134, "mit": 3135, "atu": 3136, "construction": 3137, "anim": 3138, "constitution": 3139, "ppe": 3140, "onto": 3141, "wee": 3142, "mani": 3143, "existed": 3144, "bis": 3145, "refu": 3146, "lec": 3147, "wr": 3148, "arms": 3149, "aspect": 3150, "imo": 3151, "rail": 3152, "budd": 3153, "ior": 3154, "census": 3155, "clude": 3156, "hasn": 3157, "subsection": 3158, "ission": 3159, "xing": 3160, "lls": 3161, "alleged": 3162, "plied": 3163, "thomas": 3164, "unique": 3165, "avi": 3166, "55": 3167, "institute": 3168, "hop": 3169, "items": 3170, "soc": 3171, "insul": 3172, "alization": 3173, "thread": 3174, "xi": 3175, "peter": 3176, "california": 3177, "rele": 3178, "lived": 3179, "particip": 3180, "addre": 3181, "adop": 3182, "unreliable": 3183, "round": 3184, "ites": 3185, "practic": 3186, "nazi": 3187, "ome": 3188, "perform": 3189, "pol": 3190, "emp": 3191, "histor": 3192, "exclus": 3193, "host": 3194, "products": 3195, "bes": 3196, "continued": 3197, "mans": 3198, "sty": 3199, "islands": 3200, "begin": 3201, "rela": 3202, "38": 3203, "arbit": 3204, "hit": 3205, "convention": 3206, "atten": 3207, "stron": 3208, "ridiculous": 3209, "risk": 3210, "ada": 3211, "alban": 3212, "explaining": 3213, "perfect": 3214, "services": 3215, "gran": 3216, "offer": 3217, "stance": 3218, "demo": 3219, "draft": 3220, "apart": 3221, "reception": 3222, "plying": 3223, "kly": 3224, "sovere": 3225, "reach": 3226, "pronoun": 3227, "sation": 3228, "synthesis": 3229, "meas": 3230, "ssed": 3231, "richard": 3232, "direction": 3233, "produce": 3234, "chapter": 3235, "opposite": 3236, "47": 3237, "alph": 3238, "42": 3239, "eved": 3240, "players": 3241, "benefit": 3242, "amaz": 3243, "curren": 3244, "broken": 3245, "experts": 3246, "expected": 3247, "ignore": 3248, "kr": 3249, "bert": 3250, "spl": 3251, "formal": 3252, "appearance": 3253, "aside": 3254, "hed": 3255, "favor": 3256, "purposes": 3257, "entious": 3258, "leader": 3259, "blacklisted": 3260, "laun": 3261, "thr": 3262, "nav": 3263, "pers": 3264, "allegations": 3265, "murder": 3266, "remo": 3267, "dispu": 3268, "parameter": 3269, "credit": 3270, "span": 3271, "overview": 3272, "unavailable": 3273, "officially": 3274, "effe": 3275, "legis": 3276, "founded": 3277, "execu": 3278, "ji": 3279, "terror": 3280, "afd": 3281, "department": 3282, "establish": 3283, "femin": 3284, "dialec": 3285, "phili": 3286, "passed": 3287, "px": 3288, "geor": 3289, "feature": 3290, "ural": 3291, "ony": 3292, "500": 3293, "eventually": 3294, "choose": 3295, "relations": 3296, "poly": 3297, "39": 3298, "theore": 3299, "wards": 3300, "draw": 3301, "acces": 3302, "sat": 3303, "proven": 3304, "boy": 3305, "reasoning": 3306, "gers": 3307, "44": 3308, "dge": 3309, "destro": 3310, "avoi": 3311, "encour": 3312, "51": 3313, "aging": 3314, "jum": 3315, "orial": 3316, "prominent": 3317, "suppor": 3318, "41": 3319, "grand": 3320, "fill": 3321, "seemed": 3322, "stly": 3323, "critics": 3324, "bing": 3325, "yan": 3326, "liberal": 3327, "igno": 3328, "jor": 3329, "ula": 3330, "friend": 3331, "rum": 3332, "maps": 3333, "expansion": 3334, "ander": 3335, "sey": 3336, "parents": 3337, "logo": 3338, "speech": 3339, "staf": 3340, "turkish": 3341, "hopefully": 3342, "beliefs": 3343, "oul": 3344, "subjects": 3345, "ading": 3346, "student": 3347, "authori": 3348, "unclear": 3349, "blo": 3350, "soldi": 3351, "latest": 3352, "timate": 3353, "elimin": 3354, "commercial": 3355, "eding": 3356, "rejec": 3357, "ales": 3358, "peace": 3359, "irs": 3360, "tai": 3361, "attempts": 3362, "bio": 3363, "agi": 3364, "distinct": 3365, "nuclear": 3366, "lap": 3367, "actor": 3368, "resul": 3369, "consequ": 3370, "fight": 3371, "border": 3372, "investig": 3373, "fru": 3374, "contemporary": 3375, "recommend": 3376, "terminology": 3377, "palestine": 3378, "knew": 3379, "professor": 3380, "dete": 3381, "preced": 3382, "imag": 3383, "activity": 3384, "informa": 3385, "martin": 3386, "cell": 3387, "hl": 3388, "isbn": 3389, "accordingly": 3390, "pushing": 3391, "believ": 3392, "occas": 3393, "armen": 3394, "sole": 3395, "factor": 3396, "equivalent": 3397, "gall": 3398, "justify": 3399, "fellow": 3400, "ending": 3401, "43": 3402, "thousands": 3403, "vit": 3404, "focused": 3405, "chr": 3406, "kings": 3407, "collabor": 3408, "ink": 3409, "reaction": 3410, "closely": 3411, "vague": 3412, "represented": 3413, "frequ": 3414, "compare": 3415, "lings": 3416, "indicates": 3417, "humans": 3418, "redirects": 3419, "tables": 3420, "strange": 3421, "acting": 3422, "ee": 3423, "portu": 3424, "animal": 3425, "wikil": 3426, "pit": 3427, "scienti": 3428, "rat": 3429, "unlikely": 3430, "channel": 3431, "gold": 3432, "angel": 3433, "champion": 3434, "compa": 3435, "pay": 3436, "ady": 3437, "straight": 3438, "relatively": 3439, "fox": 3440, "ror": 3441, "jose": 3442, "consum": 3443, "safe": 3444, "supre": 3445, "url": 3446, "jac": 3447, "multi": 3448, "license": 3449, "abo": 3450, "curi": 3451, "cher": 3452, "clari": 3453, "principle": 3454, "tian": 3455, "imagine": 3456, "altogether": 3457, "dubious": 3458, "trade": 3459, "ey": 3460, "ision": 3461, "albums": 3462, "communist": 3463, "recor": 3464, "blogs": 3465, "consistency": 3466, "causes": 3467, "tol": 3468, "sis": 3469, "historic": 3470, "eve": 3471, "merger": 3472, "52": 3473, "3rd": 3474, "goal": 3475, "redundant": 3476, "documented": 3477, "manual": 3478, "97": 3479, "extent": 3480, "christians": 3481, "congress": 3482, "surpr": 3483, "feed": 3484, "repeatedly": 3485, "blood": 3486, "foundation": 3487, "ually": 3488, "phenomen": 3489, "minister": 3490, "elds": 3491, "sad": 3492, "manufac": 3493, "novel": 3494, "49": 3495, "performance": 3496, "treated": 3497, "letters": 3498, "mand": 3499, "kore": 3500, "lee": 3501, "ski": 3502, "spac": 3503, "hitler": 3504, "heavy": 3505, "materials": 3506, "investigation": 3507, "voc": 3508, "psy": 3509, "quickly": 3510, "motiv": 3511, "jack": 3512, "palestinian": 3513, "istance": 3514, "accounts": 3515, "minutes": 3516, "alex": 3517, "itable": 3518, "asian": 3519, "56": 3520, "ards": 3521, "origins": 3522, "suit": 3523, "glo": 3524, "tum": 3525, "windows": 3526, "circu": 3527, "responsible": 3528, "db": 3529, "friends": 3530, "vide": 3531, "lord": 3532, "verifi": 3533, "logi": 3534, "explains": 3535, "chicago": 3536, "conclusions": 3537, "mixed": 3538, "portra": 3539, "flight": 3540, "freedom": 3541, "attributed": 3542, "75": 3543, "ight": 3544, "eye": 3545, "brit": 3546, "extra": 3547, "vali": 3548, "listas": 3549, "certi": 3550, "generation": 3551, "poorly": 3552, "collection": 3553, "soft": 3554, "thinks": 3555, "pseudo": 3556, "precise": 3557, "arly": 3558, "sl": 3559, "46": 3560, "independence": 3561, "flow": 3562, "hate": 3563, "writers": 3564, "fault": 3565, "ories": 3566, "raid": 3567, "architec": 3568, "minis": 3569, "subjec": 3570, "commentary": 3571, "advan": 3572, "grounds": 3573, "proced": 3574, "quotation": 3575, "ile": 3576, "solid": 3577, "expressed": 3578, "anonymous": 3579, "dru": 3580, "ficial": 3581, "clarification": 3582, "felt": 3583, "iran": 3584, "analy": 3585, "rant": 3586, "reviewing": 3587, "58": 3588, "forced": 3589, "possibility": 3590, "matic": 3591, "contents": 3592, "prime": 3593, "mann": 3594, "muslims": 3595, "gration": 3596, "consist": 3597, "lia": 3598, "defense": 3599, "surprised": 3600, "repeated": 3601, "ssment": 3602, "isted": 3603, "passage": 3604, "pain": 3605, "tree": 3606, "cris": 3607, "57": 3608, "wondering": 3609, "54": 3610, "pakistan": 3611, "boun": 3612, "dark": 3613, "smaller": 3614, "increase": 3615, "charles": 3616, "seven": 3617, "fighting": 3618, "admin": 3619, "doz": 3620, "tled": 3621, "initi": 3622, "diag": 3623, "hh": 3624, "participate": 3625, "property": 3626, "normally": 3627, "pag": 3628, "complic": 3629, "mill": 3630, "machine": 3631, "heavi": 3632, "abuse": 3633, "bet": 3634, "tless": 3635, "revolution": 3636, "believed": 3637, "agenda": 3638, "53": 3639, "designed": 3640, "paid": 3641, "emphasis": 3642, "insert": 3643, "gott": 3644, "zeal": 3645, "occurred": 3646, "load": 3647, "married": 3648, "cham": 3649, "wol": 3650, "variety": 3651, "supply": 3652, "presumably": 3653, "drive": 3654, "publisher": 3655, "relative": 3656, "patter": 3657, "lions": 3658, "cost": 3659, "contribution": 3660, "sec": 3661, "disrup": 3662, "cia": 3663, "judge": 3664, "dynam": 3665, "oph": 3666, "disease": 3667, "glob": 3668, "advant": 3669, "posts": 3670, "theat": 3671, "gation": 3672, "defe": 3673, "vac": 3674, "revision": 3675, "recognition": 3676, "ano": 3677, "techni": 3678, "tradition": 3679, "fast": 3680, "efforts": 3681, "talks": 3682, "nn": 3683, "inte": 3684, "memory": 3685, "worse": 3686, "diff": 3687, "formatting": 3688, "highest": 3689, "timel": 3690, "territories": 3691, "print": 3692, "item": 3693, "classical": 3694, "parliament": 3695, "stic": 3696, "defen": 3697, "dang": 3698, "graphic": 3699, "intelligence": 3700, "conflic": 3701, "turns": 3702, "dition": 3703, "recorded": 3704, "stitu": 3705, "careful": 3706, "criticisms": 3707, "shar": 3708, "correspon": 3709, "domain": 3710, "gir": 3711, "conditions": 3712, "1999": 3713, "vehic": 3714, "merging": 3715, "village": 3716, "realize": 3717, "script": 3718, "weak": 3719, "nationality": 3720, "istics": 3721, "59": 3722, "whe": 3723, "phil": 3724, "implemen": 3725, "extreme": 3726, "hou": 3727, "accurately": 3728, "fering": 3729, "questionable": 3730, "naz": 3731, "legen": 3732, "alli": 3733, "braz": 3734, "doctor": 3735, "sses": 3736, "checking": 3737, "commun": 3738, "encyclo": 3739, "addi": 3740, "quotations": 3741, "daugh": 3742, "drop": 3743, "unlike": 3744, "activities": 3745, "edu": 3746, "alities": 3747, "cement": 3748, "leads": 3749, "values": 3750, "theless": 3751, "zy": 3752, "chur": 3753, "terrorism": 3754, "math": 3755, "phys": 3756, "deaths": 3757, "compli": 3758, "dor": 3759, "neu": 3760, "contribute": 3761, "justice": 3762, "establis": 3763, "historian": 3764, "width": 3765, "immi": 3766, "charge": 3767, "pes": 3768, "woo": 3769, "ues": 3770, "err": 3771, "arabic": 3772, "build": 3773, "scand": 3774, "taining": 3775, "categ": 3776, "levels": 3777, "stoc": 3778, "cancer": 3779, "limit": 3780, "phere": 3781, "jam": 3782, "treat": 3783, "sight": 3784, "extensive": 3785, "wikipedians": 3786, "wered": 3787, "helps": 3788, "heart": 3789, "recall": 3790, "arer": 3791, "caption": 3792, "isely": 3793, "oughly": 3794, "anal": 3795, "bits": 3796, "facebook": 3797, "evalu": 3798, "pressure": 3799, "ongoing": 3800, "py": 3801, "methods": 3802, "miss": 3803, "excep": 3804, "alleg": 3805, "pure": 3806, "spain": 3807, "behavi": 3808, "trust": 3809, "grant": 3810, "italy": 3811, "surface": 3812, "ww": 3813, "nit": 3814, "reasonably": 3815, "dou": 3816, "quoting": 3817, "repeat": 3818, "zes": 3819, "symbo": 3820, "iled": 3821, "hus": 3822, "var": 3823, "dutch": 3824, "management": 3825, "pick": 3826, "ational": 3827, "95": 3828, "oo": 3829, "redirec": 3830, "plain": 3831, "neigh": 3832, "prevent": 3833, "ization": 3834, "animals": 3835, "translated": 3836, "exception": 3837, "economy": 3838, "regarded": 3839, "democratic": 3840, "cs": 3841, "aled": 3842, "passing": 3843, "lives": 3844, "sac": 3845, "financial": 3846, "schol": 3847, "typical": 3848, "viewpoint": 3849, "fications": 3850, "custom": 3851, "similarly": 3852, "director": 3853, "artists": 3854, "wealth": 3855, "fails": 3856, "target": 3857, "spent": 3858, "identical": 3859, "teams": 3860, "atically": 3861, "excellent": 3862, "chief": 3863, "batt": 3864, "ices": 3865, "aking": 3866, "silly": 3867, "chosen": 3868, "trivial": 3869, "express": 3870, "eyes": 3871, "sell": 3872, "pronunci": 3873, "illu": 3874, "ances": 3875, "famili": 3876, "64": 3877, "problematic": 3878, "decla": 3879, "idi": 3880, "mates": 3881, "oxford": 3882, "illegal": 3883, "technically": 3884, "buil": 3885, "girl": 3886, "equally": 3887, "ond": 3888, "signific": 3889, "aches": 3890, "inserted": 3891, "substantial": 3892, "anian": 3893, "museum": 3894, "mess": 3895, "newspapers": 3896, "guardian": 3897, "templates": 3898, "cuse": 3899, "hundreds": 3900, "administr": 3901, "atur": 3902, "speakers": 3903, "pm": 3904, "voted": 3905, "accom": 3906, "ends": 3907, "expe": 3908, "alternatively": 3909, "accep": 3910, "peop": 3911, "fro": 3912, "ography": 3913, "fra": 3914, "honest": 3915, "drug": 3916, "hebre": 3917, "effective": 3918, "ulty": 3919, "plane": 3920, "depic": 3921, "astro": 3922, "scene": 3923, "ints": 3924, "committee": 3925, "closer": 3926, "moreover": 3927, "trouble": 3928, "frequently": 3929, "dance": 3930, "meets": 3931, "controversi": 3932, "entially": 3933, "dep": 3934, "etymo": 3935, "restore": 3936, "credible": 3937, "pie": 3938, "caref": 3939, "dity": 3940, "vand": 3941, "improving": 3942, "genocide": 3943, "wales": 3944, "ques": 3945, "tz": 3946, "juda": 3947, "worst": 3948, "ached": 3949, "fam": 3950, "moder": 3951, "sr": 3952, "apparen": 3953, "texas": 3954, "genetic": 3955, "resources": 3956, "colour": 3957, "ethnicity": 3958, "explic": 3959, "prince": 3960, "emer": 3961, "iss": 3962, "appreci": 3963, "fish": 3964, "sexuality": 3965, "poli": 3966, "19th": 3967, "nel": 3968, "intel": 3969, "dv": 3970, "korean": 3971, "sit": 3972, "anda": 3973, "vision": 3974, "orthodox": 3975, "ounds": 3976, "genesis": 3977, "camer": 3978, "fc": 3979, "oppos": 3980, "guil": 3981, "ea": 3982, "dur": 3983, "mary": 3984, "ith": 3985, "ply": 3986, "lish": 3987, "artic": 3988, "asp": 3989, "expres": 3990, "expan": 3991, "contrast": 3992, "skep": 3993, "natur": 3994, "bloc": 3995, "discus": 3996, "stry": 3997, "religi": 3998, "resol": 3999, "stro": 4000, "vement": 4001, "tish": 4002, "verse": 4003, "deci": 4004, "ific": 4005, "movi": 4006, "fron": 4007, "dia": 4008, "legi": 4009, "occurs": 4010, "dering": 4011, "ution": 4012, "usion": 4013, "tea": 4014, "ied": 4015, "spon": 4016, "sely": 4017, "lev": 4018, "issu": 4019, "emphas": 4020, "lig": 4021, "underst": 4022, "explan": 4023, "arily": 4024, "ati": 4025, "tradi": 4026, "agra": 4027, "kk": 4028, "cum": 4029, "ig": 4030, "figh": 4031, "plo": 4032, "lated": 4033, "ange": 4034, "pap": 4035, "cit": 4036, "simil": 4037, "associ": 4038, "thir": 4039, "solu": 4040, "isms": 4041, "tit": 4042, "philosoph": 4043, "istan": 4044, "appropri": 4045, "ority": 4046, "chil": 4047, "manag": 4048, "termin": 4049, "absolu": 4050, "inser": 4051, "leng": 4052, "inde": 4053, "ambigu": 4054, "inian": 4055, "statis": 4056, "ready": 4057, "ambi": 4058, "euro": 4059, "ske": 4060, "xx": 4061, "imple": 4062, "minu": 4063, "tural": 4064, "versi": 4065, "dian": 4066, "conserva": 4067, "alize": 4068, "educ": 4069, "willi": 4070, "promin": 4071, "defini": 4072, "lor": 4073, "disambigu": 4074, "diffic": 4075, "offici": 4076, "thin": 4077, "fur": 4078, "credi": 4079, "amer": 4080, "hap": 4081, "righ": 4082, "posi": 4083, "seas": 4084, "struction": 4085, "num": 4086, "yy": 4087, "feren": 4088, "mach": 4089, "plic": 4090, "mom": 4091, "reas": 4092, "neutr": 4093, "vill": 4094, "benef": 4095, "volu": 4096, "situ": 4097, "pose": 4098, "counts": 4099, "ht": 4100, "suffici": 4101, "fring": 4102, "ain": 4103, "ier": 4104, "promis": 4105, "metho": 4106, "modif": 4107, "sume": 4108, "amoun": 4109, "oooo": 4110, "auth": 4111, "gest": 4112, "repor": 4113, "guar": 4114, "cial": 4115, "tch": 4116, "ateg": 4117, "youn": 4118, "erg": 4119, "zer": 4120, "feder": 4121, "thous": 4122, "ily": 4123, "chic": 4124, "ility": 4125, "intellig": 4126, "modi": 4127, "edy": 4128, "nex": 4129, "pedi": 4130, "pedia": 4131, "indepen": 4132, "chec": 4133, "ports": 4134, "espe": 4135, "equi": 4136, "ition": 4137, "americ": 4138, "vices": 4139, "spee": 4140, "soli": 4141, "specu": 4142, "ament": 4143, "ared": 4144, "bers": 4145, "eas": 4146, "priv": 4147, "pseu": 4148, "gge": 4149, "concer": 4150, "criter": 4151, "typ": 4152, "ames": 4153, "cus": 4154, "jection": 4155, "iso": 4156, "sour": 4157, "import": 4158, "ject": 4159, "demon": 4160, "numer": 4161, "exper": 4162, "partic": 4163, "syste": 4164, "tc": 4165, "cep": 4166, "und": 4167, "edia": 4168, "distin": 4169, "dary": 4170, "condi": 4171, "eful": 4172, "eld": 4173, "ument": 4174, "medic": 4175, "milit": 4176, "consi": 4177, "aller": 4178, "turk": 4179, "grou": 4180, "techno": 4181, "presum": 4182, "ml": 4183, "compan": 4184, "fig": 4185, "bn": 4186, "necess": 4187, "tested": 4188, "inste": 4189, "rup": 4190, "emed": 4191, "thom": 4192, "assi": 4193, "requ": 4194, "eder": 4195, "extre": 4196, "choo": 4197, "recomm": 4198, "phen": 4199, "nia": 4200, "busin": 4201, "roy": 4202, "selves": 4203, "maj": 4204, "earli": 4205, "immedi": 4206, "acti": 4207, "develop": 4208, "contri": 4209, "plies": 4210, "wikipedi": 4211, "goog": 4212, "uu": 4213, "pak": 4214, "iter": 4215, "fel": 4216, "stream": 4217, "philos": 4218, "tty": 4219, "commer": 4220, "vered": 4221, "tech": 4222, "subsequ": 4223, "dation": 4224, "tries": 4225, "chap": 4226, "licen": 4227, "accord": 4228, "trou": 4229, "tification": 4230, "belon": 4231, "cali": 4232, "campa": 4233, "itali": 4234, "dial": 4235, "ems": 4236, "figu": 4237, "palest": 4238, "professi": 4239, "yor": 4240, "essi": 4241, "spre": 4242, "enty": 4243, "reco": 4244, "contem": 4245, "hist": 4246, "fortun": 4247, "imp": 4248, "ree": 4249, "joh": 4250, "revol": 4251, "tely": 4252, "porary": 4253, "ular": 4254, "ands": 4255, "ety": 4256, "3r": 4257, "chin": 4258, "windo": 4259, "ograph": 4260, "magaz": 4261, "fen": 4262, "craft": 4263, "phi": 4264, "jus": 4265, "ington": 4266, "clus": 4267, "libr": 4268, "russi": 4269, "scho": 4270, "conclus": 4271, "tiz": 4272, "tee": 4273, "oth": 4274, "territ": 4275, "cana": 4276, "conser": 4277, "ague": 4278, "tent": 4279, "jour": 4280, "anci": 4281, "fem": 4282, "onymous": 4283, "propag": 4284, "anity": 4285, "davi": 4286, "commit": 4287, "unfortun": 4288, "parame": 4289, "revie": 4290, "pd": 4291, "clusion": 4292, "alterna": 4293, "individu": 4294, "quo": 4295, "notic": 4296, "parli": 4297, "aug": 4298, "ross": 4299, "perspe": 4300, "uplo": 4301, "histori": 4302, "beli": 4303, "exter": 4304, "possi": 4305, "occur": 4306, "tribu": 4307, "distric": 4308, "avo": 4309, "actu": 4310, "xed": 4311, "provi": 4312, "bey": 4313, "worl": 4314, "aga": 4315, "secur": 4316, "encyclopedi": 4317, "accur": 4318, "opin": 4319, "vent": 4320, "valent": 4321, "exec": 4322, "velo": 4323, "unti": 4324, "preci": 4325, "tube": 4326, "ire": 4327, "clim": 4328, "tice": 4329, "bt": 4330, "stern": 4331, "sof": 4332, "aver": 4333, "manu": 4334, "ongly": 4335, "balan": 4336, "alu": 4337, "marri": 4338, "accor": 4339, "norm": 4340, "seri": 4341, "veri": 4342, "champi": 4343, "anding": 4344, "polic": 4345, "relev": 4346, "christi": 4347, "afric": 4348, "labor": 4349, "nega": 4350, "sexu": 4351, "deta": 4352, "ortho": 4353, "chris": 4354, "spite": 4355, "promise": 4356, "profess": 4357, "cially": 4358, "syst": 4359, "vere": 4360, "sep": 4361, "unity": 4362, "adminis": 4363, "gely": 4364, "vail": 4365, "terr": 4366, "cratic": 4367, "midd": 4368, "exp": 4369, "analys": 4370, "conspir": 4371, "pire": 4372, "meth": 4373, "itly": 4374, "ctly": 4375, "ild": 4376, "depart": 4377, "sovie": 4378, "adic": 4379, "avail": 4380, "recep": 4381, "ease": 4382, "wash": 4383, "dn": 4384, "ethn": 4385, "nd": 4386, "belie": 4387, "stom": 4388, "poses": 4389, "pron": 4390, "quic": 4391, "hic": 4392, "materi": 4393, "senten": 4394, "templ": 4395, "ergy": 4396, "consen": 4397, "ridicul": 4398, "efs": 4399, "pau": 4400, "opport": 4401, "austr": 4402, "sever": 4403, "fren": 4404, "uary": 4405, "wom": 4406, "ored": 4407, "mater": 4408, "thou": 4409, "sligh": 4410, "onym": 4411, "vio": 4412, "perfe": 4413, "ould": 4414, "muse": 4415, "lished": 4416, "australi": 4417, "freed": 4418, "investi": 4419, "happ": 4420, "geno": 4421, "esis": 4422, "ool": 4423, "itely": 4424, "jap": 4425, "augh": 4426, "cil": 4427, "compre": 4428, "chang": 4429, "ril": 4430, "phs": 4431, "genoci": 4432, "ween": 4433, "orthodo": 4434, "dea": 4435, "excell": 4436, "dddd": 4437, "particul": 4438, "dless": 4439, "ood": 4440, "pects": 4441, "trivi": 4442, "exac": 4443, "nei": 4444, "beha": 4445, "micha": 4446, "langu": 4447, "agend": 4448, "mely": 4449, "civi": 4450, "wid": 4451, "ridic": 4452, "unci": 4453, "heav": 4454, "undant": 4455, "alth": 4456, "iden": 4457, "ext": 4458, "gress": 4459, "primari": 4460, "phas": 4461, "expla": 4462, "rect": 4463, "omen": 4464, "proble": 4465, "sugges": 4466, "mathe": 4467, "albu": 4468, "techn": 4469, "vities": 4470, "vious": 4471, "ope": 4472, "anese": 4473, "wro": 4474, "pse": 4475, "califor": 4476, "isra": 4477, "financi": 4478, "wikim": 4479, "inclu": 4480, "catho": 4481, "econ": 4482, "bious": 4483, "chall": 4484, "haps": 4485, "cept": 4486, "hind": 4487, "orly": 4488, "requi": 4489, "paragra": 4490, "agaz": 4491, "episo": 4492, "octo": 4493, "copyrigh": 4494, "envir": 4495, "featu": 4496, "regar": 4497, "hundre": 4498, "ember": 4499, "versy": 4500, "charac": 4501, "estab": 4502, "softw": 4503, "sugge": 4504, "septem": 4505, "vidu": 4506, "mex": 4507, "toge": 4508, "effor": 4509, "docu": 4510, "febr": 4511, "htt": 4512, "thern": 4513, "newspap": 4514, "attem": 4515, "musli": 4516, "newsp": 4517, "viously": 4518, "describ": 4519, "sugg": 4520, "dren": 4521, "centur": 4522, "itec": 4523, "pect": 4524, "ouldn": 4525}